#pragma once

const unsigned int shape_model_len = 4752;
alignas(16) const unsigned char shape_model[] = {
	0x1c,0x00,0x00,0x00,0x54,0x46,0x4c,0x33,0x14,0x00,0x20,0x00,0x1c,0x00,0x18,0x00,0x14,0x00,0x10,0x00,0x0c,0x00,0x00,0x00,0x08,0x00,0x04,0x00,0x14,0x00,0x00,0x00,0x1c,0x00,0x00,0x00,0x90,0x00,0x00,0x00,0xe8,0x00,0x00,0x00,0xd4,0x0a,0x00,0x00,0xe4,0x0a,0x00,0x00,0x0c,0x12,0x00,0x00,0x03,0x00,0x00,0x00,0x01,0x00,0x00,0x00,0x10,0x00,0x00,0x00,0x00,0x00,0x0a,0x00,0x10,0x00,0x0c,0x00,0x08,0x00,0x04,0x00,0x0a,0x00,0x00,0x00,0x0c,0x00,0x00,0x00,0x1c,0x00,0x00,0x00,0x3c,0x00,0x00,0x00,0x0f,0x00,0x00,0x00,
	0x73,0x65,0x72,0x76,0x69,0x6e,0x67,0x5f,0x64,0x65,0x66,0x61,0x75,0x6c,0x74,0x00,0x01,0x00,0x00,0x00,0x04,0x00,0x00,0x00,0x98,0xff,0xff,0xff,0x0c,0x00,0x00,0x00,0x04,0x00,0x00,0x00,0x08,0x00,0x00,0x00,0x64,0x65,0x6e,0x73,0x65,0x5f,0x31,0x39,0x00,0x00,0x00,0x00,0x01,0x00,0x00,0x00,0x04,0x00,0x00,0x00,0x1e,0xf5,0xff,0xff,0x04,0x00,0x00,0x00,0x07,0x00,0x00,0x00,0x69,0x6e,0x70,0x75,0x74,0x5f,0x37,0x00,0x02,0x00,0x00,0x00,0x34,0x00,0x00,0x00,0x04,0x00,0x00,0x00,0xdc,0xff,0xff,0xff,0x0f,0x00,0x00,0x00,
	0x04,0x00,0x00,0x00,0x13,0x00,0x00,0x00,0x43,0x4f,0x4e,0x56,0x45,0x52,0x53,0x49,0x4f,0x4e,0x5f,0x4d,0x45,0x54,0x41,0x44,0x41,0x54,0x41,0x00,0x08,0x00,0x0c,0x00,0x08,0x00,0x04,0x00,0x08,0x00,0x00,0x00,0x0e,0x00,0x00,0x00,0x04,0x00,0x00,0x00,0x13,0x00,0x00,0x00,0x6d,0x69,0x6e,0x5f,0x72,0x75,0x6e,0x74,0x69,0x6d,0x65,0x5f,0x76,0x65,0x72,0x73,0x69,0x6f,0x6e,0x00,0x10,0x00,0x00,0x00,0xe8,0x09,0x00,0x00,0xe0,0x09,0x00,0x00,0xa0,0x09,0x00,0x00,0x10,0x09,0x00,0x00,0xf4,0x08,0x00,0x00,0xd4,0x08,0x00,0x00,
	0xa4,0x08,0x00,0x00,0x8c,0x08,0x00,0x00,0xb4,0x00,0x00,0x00,0xac,0x00,0x00,0x00,0xa4,0x00,0x00,0x00,0x9c,0x00,0x00,0x00,0x94,0x00,0x00,0x00,0x8c,0x00,0x00,0x00,0x6c,0x00,0x00,0x00,0x04,0x00,0x00,0x00,0xd2,0xf5,0xff,0xff,0x04,0x00,0x00,0x00,0x58,0x00,0x00,0x00,0x0c,0x00,0x00,0x00,0x08,0x00,0x0e,0x00,0x08,0x00,0x04,0x00,0x08,0x00,0x00,0x00,0x10,0x00,0x00,0x00,0x28,0x00,0x00,0x00,0x00,0x00,0x06,0x00,0x08,0x00,0x04,0x00,0x06,0x00,0x00,0x00,0x04,0x00,0x00,0x00,0x01,0x00,0x00,0x00,0xea,0x03,0x00,0x00,
	0x00,0x00,0x0a,0x00,0x10,0x00,0x0c,0x00,0x08,0x00,0x04,0x00,0x0a,0x00,0x00,0x00,0x02,0x00,0x00,0x00,0x02,0x00,0x00,0x00,0x04,0x00,0x00,0x00,0x06,0x00,0x00,0x00,0x32,0x2e,0x31,0x35,0x2e,0x30,0x00,0x00,0x36,0xf6,0xff,0xff,0x04,0x00,0x00,0x00,0x10,0x00,0x00,0x00,0x32,0x2e,0x33,0x2e,0x30,0x00,0x00,0x00,0x00,0x00,0x00,0x00,0x00,0x00,0x00,0x00,0xcc,0xef,0xff,0xff,0xd0,0xef,0xff,0xff,0xd4,0xef,0xff,0xff,0xd8,0xef,0xff,0xff,0xdc,0xef,0xff,0xff,0x66,0xf6,0xff,0xff,0x04,0x00,0x00,0x00,0xc8,0x07,0x00,0x00,
	0xc1,0xf1,0x2e,0xcf,0xc6,0x0a,0xe3,0xf4,0x0a,0x16,0xf6,0x0e,0xec,0xfa,0x3d,0xee,0x05,0x15,0x08,0x24,0x21,0x07,0x2c,0x0b,0xcc,0x1f,0x0c,0xf2,0x41,0xfc,0xed,0x28,0x22,0xfc,0x2d,0x10,0xf8,0x46,0xfc,0x26,0x3d,0x18,0xe2,0x0d,0x0c,0x0b,0xf3,0x2a,0x1c,0xff,0x13,0x15,0x41,0x21,0x08,0x30,0x10,0xf4,0xf1,0x02,0xdd,0xea,0x25,0xf7,0x07,0xf4,0xcb,0xf9,0xe9,0xe3,0xf8,0x03,0x09,0x2d,0x11,0x19,0x37,0x15,0x19,0x28,0xff,0xd9,0x31,0xed,0xd6,0x1c,0x01,0xfc,0x04,0x16,0x2b,0x14,0xfe,0x21,0xe3,0x07,0xde,0xf0,0xfa,0xdf,
	0xe2,0xfb,0xdc,0xcf,0x09,0xea,0xfe,0x10,0x12,0x05,0x16,0x1e,0x18,0xcd,0x04,0xed,0xf3,0xff,0x1d,0xfc,0xd1,0x0f,0xee,0x07,0x05,0xf6,0x05,0x21,0x1b,0x35,0x17,0xe5,0x14,0xe5,0xdf,0x15,0xec,0xff,0x40,0xd1,0xf5,0x16,0xde,0xe6,0x32,0xcc,0x26,0x38,0xde,0x2a,0x57,0xe8,0x09,0x5c,0xa4,0xc8,0x6c,0xbe,0xef,0xaf,0xc2,0x01,0x15,0xeb,0xc8,0xea,0x11,0xec,0xce,0xde,0xf1,0xc4,0xdb,0xe9,0x3a,0xea,0xe2,0x10,0x07,0xf9,0x18,0x12,0xe9,0x1d,0xf0,0xf1,0x2b,0x0e,0x0f,0x2a,0x14,0xec,0xee,0x20,0xe6,0x04,0x35,0x09,0xda,0x1d,
	0x2b,0xe7,0xdf,0xd3,0xf8,0x18,0x20,0x1c,0x00,0xfc,0x0f,0x15,0x1b,0x2a,0x1e,0x14,0x13,0x1a,0xe3,0x2f,0xf9,0x13,0x34,0x01,0x18,0x24,0x0a,0xc1,0x3a,0x10,0xee,0x2b,0x08,0xe2,0x23,0x13,0xc7,0x23,0xe9,0xd8,0x09,0xea,0xdf,0xff,0xf9,0xfa,0x04,0xdf,0xca,0x09,0x4f,0xe0,0x23,0x2e,0xf1,0x03,0x2e,0xea,0xda,0x05,0x06,0xfa,0x25,0xea,0xd9,0x12,0xca,0x08,0xd8,0x10,0x13,0xed,0x0c,0x2e,0xd1,0x1b,0x1c,0xf8,0x21,0x0c,0xc6,0x1a,0x01,0xc7,0x15,0xf4,0xe4,0x03,0x21,0xf7,0x15,0x1e,0x13,0x10,0x0d,0xf3,0xe0,0xed,0xf2,0xef,
	0xee,0xf3,0x05,0xed,0x13,0xe4,0x0f,0x0e,0x09,0xfc,0x29,0x00,0x12,0x33,0xfb,0x29,0x26,0x06,0x24,0x17,0xfa,0x05,0xc9,0xe8,0xc7,0xc7,0xf7,0xd9,0xb5,0xea,0xf9,0xd1,0x00,0xee,0xf4,0xeb,0xe7,0xd6,0xdc,0xbb,0xf5,0x0f,0xf0,0x1e,0x0c,0xf9,0x16,0x12,0xdc,0x3b,0x16,0xf3,0x18,0x1c,0x1d,0x18,0x23,0xf9,0xee,0x0a,0xe7,0x06,0x11,0xf9,0xfe,0x2a,0x05,0xfa,0x1b,0x0a,0x0b,0x1c,0x24,0x16,0xf0,0xeb,0x0f,0xf1,0xc6,0x18,0x17,0xfa,0x14,0xf9,0x07,0x21,0xf4,0xc0,0x46,0x11,0xe9,0x67,0x1e,0x95,0x49,0xe0,0xd3,0x36,0xc8,0xa6,
	0x34,0x03,0xa6,0x5f,0x47,0xb3,0x40,0x36,0x2c,0x62,0xfe,0xe2,0x49,0x40,0xf8,0x30,0xf5,0x13,0x31,0x38,0x21,0x36,0x2a,0xce,0x07,0x2a,0xb4,0x11,0xfc,0xbb,0x21,0x2b,0xfe,0x30,0x24,0xdb,0x29,0x13,0xe5,0xf0,0x1c,0x18,0xe0,0x01,0xfc,0xe3,0x07,0x36,0xea,0xe3,0xfc,0x0f,0x2d,0x1c,0xe8,0xf7,0xf4,0xf4,0xf2,0xe5,0xfd,0xdc,0xe7,0xfb,0x07,0xd0,0xe3,0x10,0xcb,0xf2,0x02,0xd2,0xef,0xd6,0xf8,0x1c,0x24,0xf7,0x1c,0x32,0xe9,0x2f,0x30,0xe4,0x06,0x1b,0xf4,0x10,0x26,0xf4,0x3e,0x24,0x17,0x38,0x2e,0xd0,0x12,0x19,0xdf,0x5a,
	0x05,0xca,0x3c,0x2c,0xf3,0x45,0x31,0x02,0x47,0x38,0x0d,0x56,0x09,0x54,0x2b,0x1b,0x6d,0x35,0x2c,0x47,0xec,0x35,0x0c,0xf3,0x0c,0xfc,0xd9,0x14,0x06,0xb0,0x0a,0xc1,0xa3,0x00,0xc0,0xac,0x24,0xeb,0xb8,0x22,0xdc,0xd4,0x31,0xed,0xe7,0x09,0xce,0xec,0x12,0xec,0x0a,0x1c,0xc8,0xe8,0x05,0xcc,0xfa,0xeb,0xe0,0xc0,0xf4,0xe8,0xbc,0xdc,0xca,0xbc,0xec,0xce,0xcb,0xcf,0xe6,0xd5,0xf7,0xbe,0xb3,0x04,0xca,0xb2,0xfb,0x17,0xe9,0x22,0xed,0xd3,0xf7,0x1e,0xf4,0x0d,0xc5,0xdf,0xfb,0xb4,0xaf,0x18,0xf1,0xbb,0x05,0x02,0xaa,0x08,
	0x06,0xb5,0x0c,0x06,0x97,0xe4,0x13,0xb4,0xb4,0xf2,0xb5,0x17,0x01,0xab,0x23,0xf1,0x8f,0x0a,0x2e,0xc1,0xdd,0x2e,0x9b,0xf9,0x0f,0xb8,0xdb,0xf1,0xca,0xf5,0xf5,0xeb,0xe3,0x01,0xc8,0xdd,0xdb,0xe9,0x06,0xf0,0xd0,0xd6,0xab,0xe8,0x06,0xbb,0xc2,0xdc,0xc0,0xb8,0xfe,0xac,0xec,0xf7,0x83,0xe5,0x17,0xd5,0xed,0xf2,0xcd,0xf9,0x12,0xda,0xdb,0xe2,0x0e,0xc8,0xf8,0x0e,0xec,0xea,0x81,0x07,0x0c,0xb2,0x04,0x12,0xc8,0xe5,0x35,0xd2,0xd8,0x2c,0xdb,0xea,0xfc,0xd0,0xdd,0x25,0xdc,0xca,0x1c,0x01,0xce,0xfb,0x17,0xf3,0xff,0x11,
	0x20,0x4a,0x0e,0xc1,0x4a,0xd3,0x09,0x31,0xc1,0xf2,0x34,0xd0,0xf8,0x23,0xe8,0x06,0x0a,0xf7,0xed,0x20,0xed,0xfb,0x16,0xd9,0x15,0x1f,0xc3,0x0f,0x1d,0xea,0x17,0x30,0xd7,0x26,0x14,0xe5,0x27,0x1c,0xff,0x0f,0x34,0x30,0x26,0x21,0x02,0x0d,0x24,0x33,0x33,0xbe,0x1d,0x37,0xf5,0x0c,0x1f,0xc7,0x10,0x30,0xe2,0x27,0x13,0xe9,0x04,0x04,0xe6,0x2c,0x1a,0xbf,0x32,0x01,0xb5,0x1f,0x21,0xc1,0x2f,0xf4,0xb9,0x49,0xfa,0xc2,0x23,0xef,0xe5,0x1d,0xe8,0xd9,0x46,0x05,0xcb,0x4a,0xf3,0xd5,0x22,0xec,0xca,0x35,0x05,0xd9,0x23,0xf0,
	0xcc,0x0f,0x14,0xec,0x12,0xf9,0xcb,0x45,0x06,0xdc,0x40,0x03,0xcf,0x39,0x05,0xe1,0x24,0xfa,0xd0,0x40,0x09,0xe2,0x27,0x0a,0x02,0x45,0xf9,0xdd,0x21,0x24,0xd6,0x29,0x2e,0x02,0x36,0x24,0xdd,0x13,0x0f,0xdb,0x34,0x26,0xe1,0x33,0xfe,0xc5,0x39,0x04,0xce,0x0c,0x12,0xdb,0x1c,0x07,0xcd,0x17,0xff,0xdd,0xf8,0x00,0xd2,0x2a,0x03,0xb4,0x1a,0x12,0xac,0x08,0x2e,0xbc,0x19,0x20,0xfc,0x19,0x35,0xf4,0x0c,0x1d,0x06,0x0d,0x2f,0xf5,0x00,0x2c,0x00,0x0e,0x1f,0xe7,0x1f,0x12,0xf5,0x30,0x17,0xf3,0x02,0x1c,0xe3,0x2c,0x34,0x02,
	0x19,0x38,0xf2,0x0b,0x41,0xe5,0x29,0x1f,0x03,0xf4,0x40,0xee,0xee,0x24,0x0c,0xf1,0x33,0x12,0xf5,0x3f,0x05,0xe8,0x19,0xd5,0xfc,0x26,0xdc,0x0d,0x11,0xf4,0x29,0x18,0x05,0xea,0x2d,0x0e,0xf0,0x39,0x1e,0xef,0x26,0xf3,0xfc,0x0a,0x0f,0x0e,0x1d,0x0f,0xef,0x27,0xe7,0x15,0x0f,0x15,0x24,0x05,0x12,0x1a,0x10,0x0d,0x20,0x01,0x00,0x0f,0x05,0x23,0xfc,0x2e,0x03,0xf9,0xf3,0xf7,0x0f,0x0a,0xf3,0x00,0x11,0xf3,0xe1,0xe3,0xf7,0xe2,0xf0,0x09,0xee,0xf6,0x02,0xee,0xea,0x10,0x19,0xeb,0xf2,0x13,0xf6,0x0d,0xca,0x50,0x2b,0xbf,
	0x23,0x4e,0xdc,0x52,0x33,0xf8,0x6d,0x3b,0x00,0x45,0x17,0x2c,0x45,0x23,0x5f,0x43,0xf5,0x4b,0x17,0x13,0x02,0xfa,0xfe,0xe7,0xc8,0x0a,0xf6,0xda,0xf9,0xdd,0xb9,0x3b,0xc8,0xd7,0x2e,0xd4,0xf1,0x2e,0xf7,0xe4,0x19,0xe2,0xde,0x32,0xf9,0x02,0x1b,0xeb,0x27,0x20,0xf0,0x04,0xfd,0xeb,0x25,0xf3,0xca,0xf6,0xe3,0xba,0xf8,0xc9,0xf2,0xf7,0xb9,0x00,0xe2,0xf3,0xe1,0xc9,0xea,0x11,0xde,0xed,0x23,0x0f,0x23,0x4a,0x27,0x16,0x61,0x3e,0x35,0x62,0x31,0x24,0x17,0xfa,0x21,0xed,0xa3,0x04,0xf2,0xc3,0xe6,0x02,0x98,0xf4,0x20,0xcf,
	0xe7,0x15,0xbb,0xcb,0x30,0xba,0xa3,0x18,0xeb,0xff,0x25,0xe6,0x15,0x3f,0xfa,0xe4,0x6b,0xfc,0x00,0x3e,0xe4,0xd4,0x29,0xe3,0xdc,0x18,0xe4,0xea,0xd2,0xca,0x08,0xc7,0xe6,0x02,0xf0,0xff,0x14,0xd7,0xed,0x1c,0xd9,0x09,0xf9,0x04,0x11,0x33,0x09,0x0d,0x05,0x03,0xf5,0xfd,0xf3,0xe1,0xfd,0x3b,0xd8,0xf7,0x37,0x0a,0x17,0x46,0xec,0x35,0xe2,0xd1,0x0a,0x14,0xfa,0xe3,0xec,0xd7,0x0d,0x10,0xdc,0xe2,0x09,0xd9,0xdf,0x45,0xd3,0x07,0x49,0xd5,0xd9,0x2c,0xf1,0x0a,0x52,0xe3,0xdd,0x4f,0xcb,0xf4,0x32,0xf1,0xd2,0x16,0xf4,0x29,
	0x18,0xf6,0x37,0x02,0xed,0x0a,0xf3,0xe3,0x1b,0xd4,0xf8,0x02,0xd8,0x01,0x20,0xf8,0x02,0x17,0xd0,0xf7,0x03,0x08,0xf1,0x19,0xe9,0x17,0x33,0xeb,0xff,0x1a,0xf6,0x12,0x3a,0xce,0x2b,0x12,0xeb,0x11,0x34,0x2d,0x0d,0x33,0xde,0x2e,0x18,0xbc,0xff,0x3b,0xbc,0xf6,0x20,0x13,0x0f,0x0d,0x15,0xfc,0x25,0x0d,0x00,0x2e,0x06,0x38,0x2a,0x2b,0x36,0xf7,0x15,0x4b,0x11,0xf3,0x44,0x0e,0xff,0x2e,0x12,0xdf,0x2c,0x05,0xf6,0x3d,0xed,0x0e,0x3f,0x19,0xfb,0x33,0x31,0xe7,0x25,0x3e,0xe2,0x1d,0x2b,0x1b,0x0c,0x24,0x07,0x43,0x1a,0x1e,
	0x38,0x23,0xe1,0x14,0x0d,0xcb,0x12,0x07,0xd6,0x00,0x09,0xcf,0x05,0xef,0xed,0xe9,0xe6,0x0a,0x11,0xef,0x06,0x28,0xff,0x15,0x48,0x05,0x17,0x3a,0x06,0xee,0x18,0x27,0xda,0x17,0xfd,0x1a,0x08,0x13,0x07,0xf1,0x06,0x03,0xce,0xed,0xff,0xde,0xfa,0xef,0xe6,0xdb,0xec,0xe0,0xf7,0x07,0x00,0xe6,0x18,0x03,0xc9,0x18,0xf3,0xd4,0x13,0x26,0xe3,0xea,0x31,0xe8,0x08,0x07,0xf7,0x0e,0x03,0xfc,0x14,0x2c,0xe9,0xe7,0xeb,0xe9,0xf1,0xf1,0xe5,0x28,0xce,0xe2,0xfb,0xea,0x0b,0x23,0xc6,0x03,0x11,0x0b,0x2c,0x3b,0xd2,0xf1,0x70,0xaf,
	0xc5,0x48,0xd7,0xde,0xd6,0xdd,0x0e,0x23,0xfc,0xc9,0xd9,0x1d,0x10,0xb5,0xb9,0xf7,0x97,0xea,0x00,0x29,0x16,0x03,0x0f,0x15,0xd2,0x25,0x04,0xed,0x0a,0xf4,0x12,0x11,0x09,0xd6,0x1b,0x17,0xe7,0x16,0x2b,0x14,0xf6,0x36,0xf8,0xdf,0x33,0xf9,0x13,0x08,0xfe,0x11,0xf8,0x12,0x2f,0x18,0xfd,0x18,0x10,0xec,0x28,0x15,0x13,0x25,0xf9,0x1a,0xff,0xed,0x0b,0x28,0xfc,0xe7,0x3e,0xda,0xcb,0x29,0x01,0xd4,0x12,0xdf,0xe4,0x10,0x18,0xef,0xfe,0xe6,0xed,0xfc,0xf7,0xd9,0xef,0xcd,0xfb,0x1a,0xed,0xd5,0x4d,0x12,0xee,0x23,0xfe,0xf7,
	0xea,0xe9,0x0b,0xea,0xea,0xee,0xd6,0xf7,0xd9,0x00,0xb6,0xd8,0xfb,0xca,0xf6,0xd5,0xa5,0xf6,0x23,0xb8,0x1f,0x1a,0xb5,0x2e,0x31,0xb0,0xff,0x2c,0xca,0x06,0x09,0xce,0x16,0xf2,0xba,0x0c,0x11,0xea,0xef,0xf9,0xed,0x0b,0x0f,0xe1,0xf4,0xfd,0xa8,0xff,0x28,0xcf,0x21,0x33,0x01,0x07,0x28,0xfa,0x15,0x40,0xf9,0x25,0x33,0xfd,0x29,0x18,0xf3,0x2b,0x07,0xf3,0x2b,0x10,0xa2,0x1f,0xfe,0xad,0x26,0x21,0xd3,0x2a,0x1b,0xb4,0xe1,0x1b,0xcd,0xee,0xf3,0xea,0x18,0x04,0xf8,0x0c,0xfc,0x3a,0x36,0xf9,0x27,0x28,0x30,0x2d,0x44,0x29,
	0xf7,0x0f,0x12,0x13,0x3f,0xe0,0x01,0x3e,0xe8,0x0b,0x16,0xee,0xcb,0x39,0x02,0xfa,0x19,0x20,0xde,0xf5,0xfc,0xc9,0xfc,0xf4,0xf4,0x43,0x2d,0x03,0x0a,0x27,0xf4,0x0a,0xcf,0x09,0x35,0x02,0x23,0x0a,0xe8,0x1e,0xda,0xf8,0x06,0xc3,0xb5,0x0e,0xf9,0xad,0x41,0x38,0xda,0x3d,0x2e,0x4f,0x36,0x27,0xcc,0x11,0x17,0x16,0xd6,0xe5,0x4d,0x49,0x0c,0x6c,0x1a,0x3b,0xe5,0xd8,0x23,0xfc,0xe6,0x38,0x04,0xcf,0x28,0x05,0x00,0x0f,0xe8,0xd2,0x2b,0x0a,0xd7,0x07,0xe4,0xb6,0x07,0x1f,0xcd,0x22,0x00,0xc7,0x0e,0x05,0x0a,0xf9,0x11,0xe3,
	0x15,0xdb,0xf2,0xef,0xc7,0xd9,0x01,0xe6,0xd2,0xe8,0xc6,0xe0,0x02,0xf9,0xf1,0xee,0xef,0x06,0x14,0xfa,0x13,0x2b,0xfe,0x0d,0x11,0xdc,0x01,0x34,0xde,0x0d,0x35,0xdb,0xfc,0x0f,0x21,0x0e,0x03,0x29,0x13,0x0f,0xef,0x14,0x2d,0x03,0xc9,0x09,0x22,0xa1,0xf7,0x1a,0xc5,0x00,0x13,0xca,0x09,0x0c,0xdd,0x1a,0xb9,0xe1,0x38,0xda,0xf3,0xf5,0xd3,0x0b,0x17,0xea,0x2e,0xf8,0xf4,0x31,0xdd,0xfe,0x4f,0xfe,0x20,0x31,0xfa,0x04,0x56,0xff,0xfa,0x1f,0xff,0x0b,0x09,0x0f,0xe1,0x09,0x08,0x13,0x04,0xdd,0x09,0x10,0x0e,0x00,0x03,0xe2,
	0x02,0xf4,0xee,0xdd,0xfd,0x2c,0xe0,0x01,0x28,0xfa,0x24,0x19,0x0b,0x29,0x2c,0xfc,0x34,0x22,0x2b,0x65,0x06,0x2a,0x56,0xe6,0xde,0x38,0x10,0x12,0x13,0x12,0x07,0x0b,0x09,0x17,0x32,0x12,0x0f,0x38,0x04,0xf4,0x2f,0x19,0xdf,0x27,0x1d,0xe8,0x28,0x02,0xd4,0x2e,0x27,0x03,0x34,0xf6,0x16,0x0e,0xf2,0xe8,0x13,0xd5,0xe3,0x18,0xe2,0xdb,0x29,0x12,0xbe,0x1e,0xf9,0xe8,0x14,0xf3,0x12,0x18,0x08,0xca,0x05,0x11,0xe0,0xd4,0xf0,0xf8,0x02,0xef,0xfd,0xef,0x14,0x3c,0xe9,0x15,0x08,0xfe,0x33,0x08,0xed,0x0f,0x3e,0x9a,0xe1,0x2b,
	0xe3,0x04,0x04,0xb9,0x0b,0x1c,0xa5,0xcc,0xe8,0xe0,0xfc,0xe1,0xcc,0xe9,0xea,0xdb,0xf9,0x49,0xf3,0x05,0x0d,0xea,0xf4,0x24,0x02,0xd1,0xfa,0xfa,0x05,0x17,0xd9,0x12,0x27,0xfc,0xe7,0xfa,0x0f,0x06,0xcf,0x0c,0x14,0xeb,0x3b,0x14,0xe8,0xd6,0xf8,0xe3,0x1c,0xec,0x14,0x03,0x0c,0x3e,0x04,0x01,0x10,0x2b,0x14,0x1e,0x29,0xf6,0x39,0x28,0x24,0x2b,0x3c,0x12,0x1f,0x12,0xd0,0x15,0xea,0xbb,0x06,0xf3,0xdd,0x08,0x04,0xe4,0x30,0xe2,0xc3,0x22,0xde,0xe9,0xe1,0xeb,0xd2,0x2e,0xfa,0xe1,0x3a,0xfe,0xff,0xff,0x04,0x00,0x00,0x00,
	0x08,0x00,0x00,0x00,0xff,0xff,0xff,0xff,0xf9,0x00,0x00,0x00,0x4e,0xfe,0xff,0xff,0x04,0x00,0x00,0x00,0x20,0x00,0x00,0x00,0x5f,0xa9,0x46,0x3e,0x8e,0xb8,0x7f,0xbd,0x10,0x0d,0x37,0x3e,0xba,0xf7,0x6f,0x3e,0x16,0x28,0x3d,0x3e,0x3b,0xa2,0x74,0x3e,0xf2,0x1b,0xe7,0xbd,0x0d,0x84,0x6c,0xbc,0x7a,0xfe,0xff,0xff,0x04,0x00,0x00,0x00,0x10,0x00,0x00,0x00,0x00,0x3e,0x3e,0x3d,0xfb,0xf4,0x43,0xbe,0x76,0x4f,0x6d,0x3d,0xcb,0x99,0x27,0x3e,0x96,0xfe,0xff,0xff,0x04,0x00,0x00,0x00,0x0c,0x00,0x00,0x00,0xba,0x76,0xa4,0xbf,
	0x43,0xbc,0x1b,0x3f,0x0a,0xa4,0x40,0x3f,0xae,0xfe,0xff,0xff,0x04,0x00,0x00,0x00,0x80,0x00,0x00,0x00,0x5a,0x99,0xcc,0xbe,0xc3,0xba,0x04,0x3f,0x92,0x1f,0x86,0x3f,0x3b,0xd5,0x82,0x3f,0x4a,0x5d,0x2c,0x3f,0x81,0x7b,0x0d,0xbe,0x82,0x3c,0x32,0x3d,0xca,0x60,0x1f,0xbf,0xb4,0x6b,0x2c,0xbf,0xea,0x19,0xdf,0xbe,0x06,0xc7,0x2d,0xbf,0x4c,0x61,0x21,0x3f,0x45,0x45,0xe9,0xbe,0xcf,0xff,0x65,0xbf,0xcf,0xbe,0xba,0xbe,0x6c,0x27,0x05,0xbf,0x36,0xa4,0x74,0xbf,0x8f,0x2b,0xbe,0xbe,0xf4,0x70,0x06,0xbf,0x09,0xf0,0x21,0x3f,
	0xaa,0xff,0x38,0xbe,0x9a,0x2d,0x58,0xbf,0x6e,0xda,0xd9,0xbe,0x11,0x12,0x07,0xbf,0x47,0x59,0x43,0x3f,0x51,0x36,0x24,0xbf,0x98,0x49,0xdc,0x3e,0x48,0xd8,0x0e,0xbf,0x23,0x4c,0x34,0x3f,0xae,0x3a,0x3d,0x3f,0xf8,0x6d,0x88,0xbf,0xc3,0x92,0x43,0x3e,0x3a,0xff,0xff,0xff,0x04,0x00,0x00,0x00,0x30,0x00,0x00,0x00,0x40,0xd6,0x06,0x3f,0x03,0x51,0xf7,0x3e,0x62,0xd9,0xa8,0x3f,0x79,0x18,0x7c,0x3f,0xae,0x10,0xcc,0x3f,0x24,0x5f,0x9d,0xbf,0x04,0x92,0x2b,0xbf,0x9c,0xcf,0x84,0xbf,0x0f,0x5f,0x0f,0xc0,0x90,0x61,0x8e,0xbe,
	0x2f,0xdd,0x40,0x3f,0x1f,0x79,0x78,0x3f,0xf0,0xf8,0xff,0xff,0xf4,0xf8,0xff,0xff,0x0f,0x00,0x00,0x00,0x4d,0x4c,0x49,0x52,0x20,0x43,0x6f,0x6e,0x76,0x65,0x72,0x74,0x65,0x64,0x2e,0x00,0x01,0x00,0x00,0x00,0x14,0x00,0x00,0x00,0x00,0x00,0x0e,0x00,0x18,0x00,0x14,0x00,0x10,0x00,0x0c,0x00,0x08,0x00,0x04,0x00,0x0e,0x00,0x00,0x00,0x14,0x00,0x00,0x00,0x1c,0x00,0x00,0x00,0x5c,0x01,0x00,0x00,0x60,0x01,0x00,0x00,0x64,0x01,0x00,0x00,0x04,0x00,0x00,0x00,0x6d,0x61,0x69,0x6e,0x00,0x00,0x00,0x00,0x05,0x00,0x00,0x00,
	0x20,0x01,0x00,0x00,0xcc,0x00,0x00,0x00,0x78,0x00,0x00,0x00,0x40,0x00,0x00,0x00,0x04,0x00,0x00,0x00,0x52,0xff,0xff,0xff,0x1c,0x00,0x00,0x00,0x00,0x00,0x00,0x09,0x1c,0x00,0x00,0x00,0x20,0x00,0x00,0x00,0x02,0x00,0x00,0x00,0x00,0x00,0x06,0x00,0x08,0x00,0x04,0x00,0x06,0x00,0x00,0x00,0x00,0x00,0x80,0x3f,0x01,0x00,0x00,0x00,0x0c,0x00,0x00,0x00,0x01,0x00,0x00,0x00,0x0b,0x00,0x00,0x00,0x8a,0xff,0xff,0xff,0x14,0x00,0x00,0x00,0x00,0x00,0x00,0x08,0x10,0x00,0x00,0x00,0x14,0x00,0x00,0x00,0x01,0x00,0x00,0x00,
	0xb0,0xf9,0xff,0xff,0x01,0x00,0x00,0x00,0x0b,0x00,0x00,0x00,0x03,0x00,0x00,0x00,0x0a,0x00,0x00,0x00,0x01,0x00,0x00,0x00,0x03,0x00,0x00,0x00,0xbe,0xff,0xff,0xff,0x1c,0x00,0x00,0x00,0x00,0x00,0x00,0x08,0x1c,0x00,0x00,0x00,0x20,0x00,0x00,0x00,0x01,0x00,0x00,0x00,0x00,0x00,0x06,0x00,0x08,0x00,0x07,0x00,0x06,0x00,0x00,0x00,0x00,0x00,0x00,0x01,0x01,0x00,0x00,0x00,0x0a,0x00,0x00,0x00,0x03,0x00,0x00,0x00,0x09,0x00,0x00,0x00,0x02,0x00,0x00,0x00,0x04,0x00,0x00,0x00,0x00,0x00,0x0e,0x00,0x18,0x00,0x14,0x00,
	0x10,0x00,0x0c,0x00,0x0b,0x00,0x04,0x00,0x0e,0x00,0x00,0x00,0x20,0x00,0x00,0x00,0x00,0x00,0x00,0x08,0x20,0x00,0x00,0x00,0x24,0x00,0x00,0x00,0x01,0x00,0x00,0x00,0x0c,0x00,0x08,0x00,0x07,0x00,0x00,0x00,0x00,0x00,0x06,0x00,0x0c,0x00,0x00,0x00,0x00,0x00,0x01,0x01,0x01,0x00,0x00,0x00,0x09,0x00,0x00,0x00,0x03,0x00,0x00,0x00,0x08,0x00,0x00,0x00,0x07,0x00,0x00,0x00,0x05,0x00,0x00,0x00,0x00,0x00,0x0a,0x00,0x0c,0x00,0x00,0x00,0x08,0x00,0x04,0x00,0x0a,0x00,0x00,0x00,0x08,0x00,0x00,0x00,0x0c,0x00,0x00,0x00,
	0x01,0x00,0x00,0x00,0x08,0x00,0x00,0x00,0x02,0x00,0x00,0x00,0x00,0x00,0x00,0x00,0x06,0x00,0x00,0x00,0x01,0x00,0x00,0x00,0x0c,0x00,0x00,0x00,0x01,0x00,0x00,0x00,0x00,0x00,0x00,0x00,0x0d,0x00,0x00,0x00,0x34,0x05,0x00,0x00,0xcc,0x04,0x00,0x00,0x64,0x04,0x00,0x00,0x08,0x04,0x00,0x00,0xac,0x03,0x00,0x00,0x50,0x03,0x00,0x00,0x00,0x03,0x00,0x00,0x6c,0x02,0x00,0x00,0x0c,0x02,0x00,0x00,0x74,0x01,0x00,0x00,0xdc,0x00,0x00,0x00,0x60,0x00,0x00,0x00,0x04,0x00,0x00,0x00,0x16,0xfb,0xff,0xff,0x00,0x00,0x00,0x01,
	0x14,0x00,0x00,0x00,0x1c,0x00,0x00,0x00,0x1c,0x00,0x00,0x00,0x0d,0x00,0x00,0x00,0x34,0x00,0x00,0x00,0x02,0x00,0x00,0x00,0xff,0xff,0xff,0xff,0x03,0x00,0x00,0x00,0xfc,0xfa,0xff,0xff,0x19,0x00,0x00,0x00,0x53,0x74,0x61,0x74,0x65,0x66,0x75,0x6c,0x50,0x61,0x72,0x74,0x69,0x74,0x69,0x6f,0x6e,0x65,0x64,0x43,0x61,0x6c,0x6c,0x3a,0x30,0x00,0x00,0x00,0x02,0x00,0x00,0x00,0x01,0x00,0x00,0x00,0x03,0x00,0x00,0x00,0x6e,0xfb,0xff,0xff,0x00,0x00,0x00,0x01,0x14,0x00,0x00,0x00,0x1c,0x00,0x00,0x00,0x1c,0x00,0x00,0x00,
	0x0c,0x00,0x00,0x00,0x54,0x00,0x00,0x00,0x02,0x00,0x00,0x00,0xff,0xff,0xff,0xff,0x03,0x00,0x00,0x00,0x54,0xfb,0xff,0xff,0x3a,0x00,0x00,0x00,0x73,0x65,0x71,0x75,0x65,0x6e,0x74,0x69,0x61,0x6c,0x5f,0x36,0x2f,0x64,0x65,0x6e,0x73,0x65,0x5f,0x31,0x39,0x2f,0x4d,0x61,0x74,0x4d,0x75,0x6c,0x3b,0x73,0x65,0x71,0x75,0x65,0x6e,0x74,0x69,0x61,0x6c,0x5f,0x36,0x2f,0x64,0x65,0x6e,0x73,0x65,0x5f,0x31,0x39,0x2f,0x42,0x69,0x61,0x73,0x41,0x64,0x64,0x00,0x00,0x02,0x00,0x00,0x00,0x01,0x00,0x00,0x00,0x03,0x00,0x00,0x00,
	0xe6,0xfb,0xff,0xff,0x00,0x00,0x00,0x01,0x14,0x00,0x00,0x00,0x1c,0x00,0x00,0x00,0x1c,0x00,0x00,0x00,0x0b,0x00,0x00,0x00,0x70,0x00,0x00,0x00,0x02,0x00,0x00,0x00,0xff,0xff,0xff,0xff,0x04,0x00,0x00,0x00,0xcc,0xfb,0xff,0xff,0x55,0x00,0x00,0x00,0x73,0x65,0x71,0x75,0x65,0x6e,0x74,0x69,0x61,0x6c,0x5f,0x36,0x2f,0x64,0x65,0x6e,0x73,0x65,0x5f,0x31,0x38,0x2f,0x4d,0x61,0x74,0x4d,0x75,0x6c,0x3b,0x73,0x65,0x71,0x75,0x65,0x6e,0x74,0x69,0x61,0x6c,0x5f,0x36,0x2f,0x64,0x65,0x6e,0x73,0x65,0x5f,0x31,0x38,0x2f,0x52,
	0x65,0x6c,0x75,0x3b,0x73,0x65,0x71,0x75,0x65,0x6e,0x74,0x69,0x61,0x6c,0x5f,0x36,0x2f,0x64,0x65,0x6e,0x73,0x65,0x5f,0x31,0x38,0x2f,0x42,0x69,0x61,0x73,0x41,0x64,0x64,0x00,0x00,0x00,0x02,0x00,0x00,0x00,0x01,0x00,0x00,0x00,0x04,0x00,0x00,0x00,0x7a,0xfc,0xff,0xff,0x00,0x00,0x00,0x01,0x14,0x00,0x00,0x00,0x1c,0x00,0x00,0x00,0x1c,0x00,0x00,0x00,0x0a,0x00,0x00,0x00,0x70,0x00,0x00,0x00,0x02,0x00,0x00,0x00,0xff,0xff,0xff,0xff,0x08,0x00,0x00,0x00,0x60,0xfc,0xff,0xff,0x55,0x00,0x00,0x00,0x73,0x65,0x71,0x75,
	0x65,0x6e,0x74,0x69,0x61,0x6c,0x5f,0x36,0x2f,0x64,0x65,0x6e,0x73,0x65,0x5f,0x31,0x37,0x2f,0x4d,0x61,0x74,0x4d,0x75,0x6c,0x3b,0x73,0x65,0x71,0x75,0x65,0x6e,0x74,0x69,0x61,0x6c,0x5f,0x36,0x2f,0x64,0x65,0x6e,0x73,0x65,0x5f,0x31,0x37,0x2f,0x52,0x65,0x6c,0x75,0x3b,0x73,0x65,0x71,0x75,0x65,0x6e,0x74,0x69,0x61,0x6c,0x5f,0x36,0x2f,0x64,0x65,0x6e,0x73,0x65,0x5f,0x31,0x37,0x2f,0x42,0x69,0x61,0x73,0x41,0x64,0x64,0x00,0x00,0x00,0x02,0x00,0x00,0x00,0x01,0x00,0x00,0x00,0x08,0x00,0x00,0x00,0x0e,0xfd,0xff,0xff,
	0x00,0x00,0x00,0x01,0x14,0x00,0x00,0x00,0x1c,0x00,0x00,0x00,0x1c,0x00,0x00,0x00,0x09,0x00,0x00,0x00,0x38,0x00,0x00,0x00,0x02,0x00,0x00,0x00,0xff,0xff,0xff,0xff,0xf9,0x00,0x00,0x00,0xf4,0xfc,0xff,0xff,0x1e,0x00,0x00,0x00,0x73,0x65,0x71,0x75,0x65,0x6e,0x74,0x69,0x61,0x6c,0x5f,0x36,0x2f,0x66,0x6c,0x61,0x74,0x74,0x65,0x6e,0x5f,0x36,0x2f,0x52,0x65,0x73,0x68,0x61,0x70,0x65,0x00,0x00,0x02,0x00,0x00,0x00,0x01,0x00,0x00,0x00,0xf9,0x00,0x00,0x00,0x86,0xff,0xff,0xff,0x00,0x00,0x00,0x01,0x20,0x00,0x00,0x00,
	0x3c,0x00,0x00,0x00,0x08,0x00,0x00,0x00,0x00,0x00,0x00,0x09,0x54,0x00,0x00,0x00,0x0c,0x00,0x0c,0x00,0x00,0x00,0x00,0x00,0x08,0x00,0x04,0x00,0x0c,0x00,0x00,0x00,0x08,0x00,0x00,0x00,0x10,0x00,0x00,0x00,0x01,0x00,0x00,0x00,0x00,0x00,0x00,0x00,0x00,0x00,0x00,0x00,0x01,0x00,0x00,0x00,0x94,0x4e,0xad,0x3b,0x1c,0x00,0x00,0x00,0x73,0x65,0x71,0x75,0x65,0x6e,0x74,0x69,0x61,0x6c,0x5f,0x36,0x2f,0x64,0x65,0x6e,0x73,0x65,0x5f,0x31,0x37,0x2f,0x4d,0x61,0x74,0x4d,0x75,0x6c,0x00,0x00,0x00,0x00,0x02,0x00,0x00,0x00,
	0x08,0x00,0x00,0x00,0xf9,0x00,0x00,0x00,0x00,0x00,0x16,0x00,0x1c,0x00,0x18,0x00,0x17,0x00,0x10,0x00,0x0c,0x00,0x08,0x00,0x00,0x00,0x00,0x00,0x00,0x00,0x07,0x00,0x16,0x00,0x00,0x00,0x00,0x00,0x00,0x01,0x14,0x00,0x00,0x00,0x14,0x00,0x00,0x00,0x07,0x00,0x00,0x00,0x00,0x00,0x00,0x02,0x2c,0x00,0x00,0x00,0xd4,0xfd,0xff,0xff,0x1c,0x00,0x00,0x00,0x73,0x65,0x71,0x75,0x65,0x6e,0x74,0x69,0x61,0x6c,0x5f,0x36,0x2f,0x66,0x6c,0x61,0x74,0x74,0x65,0x6e,0x5f,0x36,0x2f,0x43,0x6f,0x6e,0x73,0x74,0x00,0x00,0x00,0x00,
	0x01,0x00,0x00,0x00,0x02,0x00,0x00,0x00,0xaa,0xfe,0xff,0xff,0x00,0x00,0x00,0x01,0x10,0x00,0x00,0x00,0x10,0x00,0x00,0x00,0x06,0x00,0x00,0x00,0x3c,0x00,0x00,0x00,0x1c,0xfe,0xff,0xff,0x2c,0x00,0x00,0x00,0x73,0x65,0x71,0x75,0x65,0x6e,0x74,0x69,0x61,0x6c,0x5f,0x36,0x2f,0x64,0x65,0x6e,0x73,0x65,0x5f,0x31,0x37,0x2f,0x42,0x69,0x61,0x73,0x41,0x64,0x64,0x2f,0x52,0x65,0x61,0x64,0x56,0x61,0x72,0x69,0x61,0x62,0x6c,0x65,0x4f,0x70,0x00,0x00,0x00,0x00,0x01,0x00,0x00,0x00,0x08,0x00,0x00,0x00,0x02,0xff,0xff,0xff,
	0x00,0x00,0x00,0x01,0x10,0x00,0x00,0x00,0x10,0x00,0x00,0x00,0x05,0x00,0x00,0x00,0x3c,0x00,0x00,0x00,0x74,0xfe,0xff,0xff,0x2c,0x00,0x00,0x00,0x73,0x65,0x71,0x75,0x65,0x6e,0x74,0x69,0x61,0x6c,0x5f,0x36,0x2f,0x64,0x65,0x6e,0x73,0x65,0x5f,0x31,0x38,0x2f,0x42,0x69,0x61,0x73,0x41,0x64,0x64,0x2f,0x52,0x65,0x61,0x64,0x56,0x61,0x72,0x69,0x61,0x62,0x6c,0x65,0x4f,0x70,0x00,0x00,0x00,0x00,0x01,0x00,0x00,0x00,0x04,0x00,0x00,0x00,0x5a,0xff,0xff,0xff,0x00,0x00,0x00,0x01,0x10,0x00,0x00,0x00,0x10,0x00,0x00,0x00,
	0x04,0x00,0x00,0x00,0x3c,0x00,0x00,0x00,0xcc,0xfe,0xff,0xff,0x2c,0x00,0x00,0x00,0x73,0x65,0x71,0x75,0x65,0x6e,0x74,0x69,0x61,0x6c,0x5f,0x36,0x2f,0x64,0x65,0x6e,0x73,0x65,0x5f,0x31,0x39,0x2f,0x42,0x69,0x61,0x73,0x41,0x64,0x64,0x2f,0x52,0x65,0x61,0x64,0x56,0x61,0x72,0x69,0x61,0x62,0x6c,0x65,0x4f,0x70,0x00,0x00,0x00,0x00,0x01,0x00,0x00,0x00,0x03,0x00,0x00,0x00,0xb2,0xff,0xff,0xff,0x00,0x00,0x00,0x01,0x10,0x00,0x00,0x00,0x10,0x00,0x00,0x00,0x03,0x00,0x00,0x00,0x2c,0x00,0x00,0x00,0x24,0xff,0xff,0xff,
	0x1c,0x00,0x00,0x00,0x73,0x65,0x71,0x75,0x65,0x6e,0x74,0x69,0x61,0x6c,0x5f,0x36,0x2f,0x64,0x65,0x6e,0x73,0x65,0x5f,0x31,0x38,0x2f,0x4d,0x61,0x74,0x4d,0x75,0x6c,0x00,0x00,0x00,0x00,0x02,0x00,0x00,0x00,0x04,0x00,0x00,0x00,0x08,0x00,0x00,0x00,0x00,0x00,0x16,0x00,0x18,0x00,0x14,0x00,0x00,0x00,0x10,0x00,0x0c,0x00,0x08,0x00,0x00,0x00,0x00,0x00,0x00,0x00,0x07,0x00,0x16,0x00,0x00,0x00,0x00,0x00,0x00,0x01,0x10,0x00,0x00,0x00,0x10,0x00,0x00,0x00,0x02,0x00,0x00,0x00,0x2c,0x00,0x00,0x00,0x88,0xff,0xff,0xff,
	0x1c,0x00,0x00,0x00,0x73,0x65,0x71,0x75,0x65,0x6e,0x74,0x69,0x61,0x6c,0x5f,0x36,0x2f,0x64,0x65,0x6e,0x73,0x65,0x5f,0x31,0x39,0x2f,0x4d,0x61,0x74,0x4d,0x75,0x6c,0x00,0x00,0x00,0x00,0x02,0x00,0x00,0x00,0x03,0x00,0x00,0x00,0x04,0x00,0x00,0x00,0x00,0x00,0x16,0x00,0x1c,0x00,0x18,0x00,0x00,0x00,0x14,0x00,0x10,0x00,0x0c,0x00,0x00,0x00,0x00,0x00,0x08,0x00,0x07,0x00,0x16,0x00,0x00,0x00,0x00,0x00,0x00,0x01,0x14,0x00,0x00,0x00,0x24,0x00,0x00,0x00,0x24,0x00,0x00,0x00,0x01,0x00,0x00,0x00,0x3c,0x00,0x00,0x00,
	0x03,0x00,0x00,0x00,0xff,0xff,0xff,0xff,0x53,0x00,0x00,0x00,0x03,0x00,0x00,0x00,0x04,0x00,0x04,0x00,0x04,0x00,0x00,0x00,0x19,0x00,0x00,0x00,0x73,0x65,0x72,0x76,0x69,0x6e,0x67,0x5f,0x64,0x65,0x66,0x61,0x75,0x6c,0x74,0x5f,0x69,0x6e,0x70,0x75,0x74,0x5f,0x37,0x3a,0x30,0x00,0x00,0x00,0x03,0x00,0x00,0x00,0x01,0x00,0x00,0x00,0x53,0x00,0x00,0x00,0x03,0x00,0x00,0x00,0x03,0x00,0x00,0x00,0x40,0x00,0x00,0x00,0x20,0x00,0x00,0x00,0x04,0x00,0x00,0x00,0xd8,0xff,0xff,0xff,0x19,0x00,0x00,0x00,0x00,0x00,0x00,0x19,
	0x0c,0x00,0x10,0x00,0x0f,0x00,0x00,0x00,0x08,0x00,0x04,0x00,0x0c,0x00,0x00,0x00,0x09,0x00,0x00,0x00,0x09,0x00,0x00,0x00,0x00,0x00,0x00,0x09,0x0c,0x00,0x0c,0x00,0x0b,0x00,0x00,0x00,0x00,0x00,0x04,0x00,0x0c,0x00,0x00,0x00,0x16,0x00,0x00,0x00,0x00,0x00,0x00,0x16
};
